<unk>	0
<s>	0
</s>	0
<pad>	0
<bos>	0
<sep>	0
<eos>	0
▁	-1.97781
:	-2.66197
.	-3.23651
user	-3.35371
assistant	-3.35614
?	-3.5798
▁you	-3.84157
▁I	-3.8728
!	-3.9008
,	-3.96607
▁the	-4.36722
▁a	-4.3862
ing	-4.42469
s	-4.43328
and	-4.53117
▁How	-4.56751
▁can	-4.71362
▁are	-4.73773
'	-4.76734
▁to	-4.79219
▁jokes	-4.80904
m	-4.90953
y	-5.0468
▁for	-5.05367
tell	-5.06575
▁about	-5.07512
’	-5.08475
▁joke	-5.09766
▁Do	-5.24418
e	-5.26116
▁good	-5.27943
▁Yes	-5.30768
▁know	-5.32643
▁me	-5.34295
▁today	-5.45309
▁Wh	-5.48455
ad	-5.50046
▁did	-5.50814
▁T	-5.50866
▁cr	-5.52557
▁Hi	-5.53791
oss	-5.54245
▁ro	-5.56069
▁Pl	-5.56187
t	-5.57711
ease	-5.60032
▁in	-5.62525
▁Can	-5.64072
n	-5.65386
▁with	-5.66562
▁stay	-5.72602
▁You	-5.75028
id	-5.7679
▁daily	-5.78047
avo	-5.96855
▁been	-6.01721
▁on	-6.02626
▁Sure	-6.03616
▁ch	-6.04127
▁conversation	-6.05072
▁assist	-6.0539
▁respectful	-6.05507
▁your	-6.07239
▁fuck	-6.09868
▁or	-6.10315
if	-6.12491
▁while	-6.13195
▁consistently	-6.13614
ve	-6.1395
sults	-6.21353
ell	-6.2148
▁how	-6.22168
▁have	-6.22232
▁chi	-6.24472
icke	-6.26235
▁day	-6.29701
▁short	-6.34093
▁Hello	-6.37141
▁What	-6.37982
▁new	-6.4387
▁small	-6.43958
st	-6.4543
▁Hey	-6.45461
d	-6.45827
is	-6.51438
my	-6.54274
▁want	-6.56226
▁keep	-6.57263
ed	-6.59728
▁W	-6.61253
▁S	-6.62298
▁it	-6.64874
▁help	-6.69042
▁learning	-6.7201
▁of	-6.72084
▁improve	-6.73436
cke	-6.75423
▁there	-6.76772
▁focus	-6.78055
ays	-6.80805
▁try	-6.82722
ake	-6.86325
▁back	-6.86972
▁practice	-6.87051
ips	-6.87287
▁don	-6.88176
▁doing	-6.88198
▁breaks	-6.89482
▁regularly	-6.90151
▁going	-6.90196
▁long	-6.90323
▁Us	-6.9126
▁dur	-6.91294
▁simple	-6.93608
en	-6.94175
▁think	-6.96495
▁efficiently	-6.97914
▁so	-6.98086
▁fun	-6.98826
▁Start	-6.99182
▁time	-6.99568
▁maintain	-7.00322
▁ju	-7.00611
-	-7.01041
▁easily	-7.02782
▁things	-7.03183
▁start	-7.04393
▁gradually	-7.04737
▁Good	-7.04909
▁C	-7.05704
▁distractions	-7.05925
▁exercises	-7.0649
deas	-7.06625
▁need	-7.06703
▁effectively	-7.06726
▁again	-7.06902
▁at	-7.07058
ly	-7.0823
al	-7.08365
▁D	-7.10986
▁home	-7.12421
er	-7.12872
ive	-7.13834
▁games	-7.13888
▁take	-7.14633
▁up	-7.17155
▁reduc	-7.18819
uggestions	-7.21265
▁like	-7.23216
▁Tr	-7.2372
▁now	-7.24241
▁liv	-7.25484
▁tasks	-7.2669
▁track	-7.2758
▁improv	-7.2776
▁M	-7.29515
▁review	-7.30316
▁work	-7.31419
▁pro	-7.31728
▁quickly	-7.32125
▁reading	-7.32259
▁working	-7.32898
vide	-7.3385
▁activities	-7.34986
▁Set	-7.35189
ld	-7.36002
▁Practice	-7.36315
▁tips	-7.36646
i	-7.41246
▁check	-7.4219
▁notes	-7.44441
▁far	-7.456
▁chat	-7.47586
each	-7.48842
▁language	-7.49839
▁No	-7.50186
▁sessions	-7.52335
▁app	-7.52427
▁busy	-7.54581
ll	-7.54819
but	-7.57657
▁breathing	-7.58149
▁well	-7.58195
▁this	-7.59301
▁healthy	-7.59476
▁great	-7.59863
▁summarize	-7.59904
▁meals	-7.61
▁be	-7.61266
▁website	-7.62988
l	-7.63653
nd	-7.63928
▁feeling	-7.63939
▁progress	-7.64051
▁eat	-7.65097
▁mind	-7.66992
▁more	-7.6805
▁health	-7.68093
ry	-7.70038
▁much	-7.72164
▁practic	-7.72396
▁off	-7.72405
▁we	-7.72587
▁stretch	-7.72944
▁creative	-7.73695
▁what	-7.74516
▁study	-7.75475
tion	-7.75515
▁studying	-7.75567
▁A	-7.76613
▁read	-7.76877
ken	-7.77108
out	-7.77222
ial	-7.77884
▁by	-7.78006
▁re	-7.78031
ethod	-7.79375
▁real	-7.79527
▁b	-7.79926
re	-7.80476
▁routine	-7.8062
▁one	-7.81388
o	-7.81401
ren	-7.81436
▁Welcome	-7.82351
▁sports	-7.84188
from	-7.85262
▁fruits	-7.85478
c	-7.85497
▁enjoy	-7.85747
▁info	-7.86207
▁hello	-7.86232
▁stress	-7.86716
ju	-7.8716
▁bot	-7.88361
▁easy	-7.88531
f	-7.88713
▁that	-7.88925
▁skills	-7.89821
▁projects	-7.90269
on	-7.90337
▁snacks	-7.90423
▁That	-7.90759
▁an	-7.92038
▁better	-7.9216
▁advice	-7.92187
▁has	-7.9308
▁use	-7.9334
ways	-7.94161
▁indoor	-7.94338
▁Nice	-7.94521
heck	-7.94965
▁productive	-7.95039
▁morning	-7.95315
▁schedule	-7.95324
▁weather	-7.95508
▁H	-7.95735
▁tra	-7.95769
▁some	-7.95777
ness	-7.96223
▁storytelling	-7.96991
▁engage	-7.97054
▁F	-7.98402
▁B	-7.98554
▁Plan	-7.98853
▁G	-7.98871
▁weekend	-7.99323
▁music	-8.00044
▁hours	-8.00997
ke	-8.01319
▁relaxing	-8.01689
▁creatively	-8.02662
▁offic	-8.02811
▁Thanks	-8.03081
ffic	-8.03918
a	-8.04126
▁balance	-8.0414
▁write	-8.04749
▁recipes	-8.06216
▁water	-8.06279
ick	-8.06536
time	-8.06839
▁every	-8.06854
▁Let	-8.06874
▁yourself	-8.09043
▁wh	-8.09311
▁see	-8.10201
r	-8.1035
▁O	-8.10776
▁politely	-8.11348
▁friends	-8.11422
ask	-8.12243
▁key	-8.13363
▁Fo	-8.13389
ize	-8.13698
▁active	-8.13776
in	-8.14159
▁access	-8.14171
▁con	-8.14594
▁goals	-8.1475
▁quick	-8.15277
▁process	-8.1537
▁person	-8.15474
▁m	-8.15722
▁remov	-8.15961
▁motivated	-8.16041
ck	-8.16092
▁hobb	-8.17129
▁evening	-8.17225
▁learn	-8.1729
▁t	-8.17644
es	-8.17926
▁interesting	-8.18306
▁P	-8.18391
▁listen	-8.18447
▁suggest	-8.18964
ought	-8.19015
right	-8.1909
▁g	-8.19381
▁hi	-8.20903
▁recommend	-8.21471
▁everything	-8.21477
u	-8.21648
▁pu	-8.21762
▁garden	-8.22098
ze	-8.22827
▁deep	-8.23322
▁polite	-8.23351
▁Any	-8.23428
▁basic	-8.2402
▁Re	-8.25035
▁watch	-8.25536
▁words	-8.2599
▁minim	-8.25994
▁sleep	-8.26073
▁drawing	-8.26317
▁w	-8.26787
direct	-8.27846
▁first	-8.27972
▁texts	-8.28113
x	-8.28119
be	-8.28325
▁books	-8.28702
ocus	-8.29081
▁course	-8.29363
▁carefully	-8.30029
▁Ar	-8.31013
▁free	-8.31487
▁results	-8.31805
ensi	-8.32521
▁focused	-8.32658
▁organiz	-8.32811
▁online	-8.32823
▁Bye	-8.3349
▁memory	-8.33596
▁f	-8.34505
▁ca	-8.34863
▁clear	-8.34992
nate	-8.35005
able	-8.35075
▁bo	-8.35598
▁week	-8.35655
▁sugar	-8.35665
▁writing	-8.35718
▁prioriti	-8.36413
ies	-8.36472
limi	-8.37035
ard	-8.37366
▁talk	-8.37862
▁Morning	-8.37881
▁explor	-8.37889
▁interacti	-8.37964
us	-8.38846
▁Pre	-8.38955
▁reward	-8.39084
▁J	-8.39984
▁Te	-8.40084
or	-8.4011
▁before	-8.4013
▁information	-8.40154
le	-8.40396
▁questions	-8.40471
▁workspace	-8.40906
▁mindful	-8.40962
▁instrument	-8.40988
▁Ta	-8.4121
▁set	-8.41357
▁items	-8.41656
I	-8.41674
▁V	-8.41835
▁here	-8.43219
▁do	-8.43601
▁current	-8.43984
▁relax	-8.45326
▁nearby	-8.45598
▁recently	-8.45606
centra	-8.45947
▁paragraphs	-8.46417
▁Su	-8.4662
ic	-8.46679
▁yogurt	-8.47217
▁posture	-8.47222
ment	-8.47647
▁sit	-8.48157
▁financ	-8.48199
▁best	-8.48504
▁points	-8.48862
▁night	-8.49669
▁basil	-8.49692
▁later	-8.50557
▁lighting	-8.50827
▁Ad	-8.50949
▁Se	-8.519
▁l	-8.52183
▁lately	-8.52261
▁c	-8.52319
▁cooking	-8.52886
▁increas	-8.54165
ty	-8.54196
ggestions	-8.54409
▁them	-8.54769
▁strategies	-8.54866
▁town	-8.55006
▁crafts	-8.55063
▁news	-8.55394
▁chair	-8.5573
▁happ	-8.56628
▁Eat	-8.56688
▁str	-8.56833
▁Ma	-8.57573
▁score	-8.58424
▁cou	-8.5874
▁K	-8.59257
▁mint	-8.59396
;	-8.60107
▁vegetables	-8.60285
▁r	-8.60953
mental	-8.61187
▁herb	-8.61205
▁intake	-8.61251
▁often	-8.61254
▁piece	-8.61288
▁periods	-8.61294
▁even	-8.61551
▁problem	-8.61924
les	-8.61994
▁data	-8.62137
▁steps	-8.62312
▁E	-8.62691
▁friend	-8.62795
ugg	-8.63108
▁quality	-8.64067
to	-8.64089
use	-8.64749
app	-8.64819
▁text	-8.64894
▁rewarding	-8.65424
Y	-8.66521
T	-8.66679
▁step	-8.66816
▁respect	-8.66993
cus	-8.67219
▁ba	-8.67888
ch	-8.67989
▁service	-8.68006
k	-8.68585
▁ins	-8.68706
▁comple	-8.68916
▁play	-8.69064
ults	-8.69522
▁balcony	-8.70035
S	-8.70498
▁It	-8.70622
▁limit	-8.70719
▁Bo	-8.70862
▁energ	-8.71058
▁hydrated	-8.71069
▁AI	-8.71115
▁choos	-8.71168
▁upright	-8.71177
▁care	-8.71321
▁find	-8.71418
▁songs	-8.72222
ally	-8.7278
▁movie	-8.73084
▁facts	-8.73209
▁nuts	-8.73346
▁add	-8.73474
▁update	-8.73905
▁bit	-8.73917
▁life	-8.74009
▁drink	-8.74211
▁Writ	-8.74931
ful	-8.74931
ain	-8.75238
hey	-8.75686
▁planning	-8.76406
aily	-8.76651
▁smart	-8.7747
▁minutes	-8.77481
▁properly	-8.77503
sh	-8.78211
▁phone	-8.78492
▁break	-8.78509
▁photography	-8.78607
▁options	-8.78702
▁shi	-8.78891
urn	-8.78982
▁height	-8.79738
▁changes	-8.80063
▁complet	-8.81067
ions	-8.81086
▁speed	-8.81988
▁something	-8.82005
▁city	-8.82035
▁Read	-8.82086
▁engaging	-8.82292
▁breath	-8.82402
ich	-8.82678
age	-8.82935
isit	-8.83346
▁book	-8.83815
▁plan	-8.83908
▁lo	-8.83991
▁space	-8.8414
low	-8.84209
▁yoga	-8.84316
cy	-8.84995
we	-8.85096
▁s	-8.85266
▁respectfully	-8.85492
ooking	-8.8559
▁As	-8.85896
icate	-8.86306
eep	-8.86442
▁was	-8.86541
ting	-8.86565
▁techniques	-8.86619
▁Goodbye	-8.86735
▁skill	-8.86741
▁interest	-8.86903
▁speaking	-8.87311
▁trip	-8.87697
w	-8.87751
eed	-8.87762
▁concepts	-8.87952
ation	-8.87986
▁screen	-8.8799
ens	-8.89059
▁apps	-8.89064
▁through	-8.89182
▁meditation	-8.89192
ious	-8.89302
▁Talk	-8.8961
▁typ	-8.89692
▁organize	-8.8987
not	-8.90041
▁repe	-8.90055
ance	-8.90349
D	-8.90362
▁constructive	-8.90372
et	-8.9056
erate	-8.90572
own	-8.90743
▁manage	-8.90915
ow	-8.91306
ar	-8.91603
▁project	-8.91778
▁cont	-8.91981
▁over	-8.91987
dy	-8.9207
E	-8.92432
ple	-8.92737
it	-8.92879
▁Fuck	-8.92969
▁important	-8.92984
▁di	-8.92985
▁features	-8.93076
▁currently	-8.93097
sk	-8.93162
▁lot	-8.93651
▁wo	-8.94145
▁deadlines	-8.94284
▁technique	-8.9441
▁chapters	-8.95594
▁neighbor	-8.95594
▁type	-8.96405
est	-8.96465
▁moment	-8.96938
▁repeat	-8.97217
▁go	-8.97334
zz	-8.97547
▁machine	-8.98273
▁productivity	-8.98285
▁recipe	-8.98441
egin	-8.98543
up	-8.99434
range	-8.99459
▁get	-8.99536
▁accuracy	-8.99647
▁relaxation	-8.99675
▁treat	-8.99944
▁decorat	-9.00277
▁respond	-9.0103
style	-9.01046
de	-9.01233
▁wake	-9.01401
▁gen	-9.01529
leep	-9.02252
▁favorite	-9.02441
▁code	-9.02445
▁coding	-9.02458
▁interact	-9.02632
▁exercise	-9.02649
▁Prepar	-9.02778
phone	-9.03647
▁thanks	-9.04237
▁The	-9.04356
▁fol	-9.04411
ce	-9.04472
▁refr	-9.04516
▁Small	-9.05305
▁remotely	-9.05317
▁furniture	-9.05319
▁history	-9.05372
▁park	-9.05384
▁any	-9.05484
▁ahead	-9.05497
▁actively	-9.05521
ts	-9.05644
▁organized	-9.05979
ctions	-9.0608
▁kit	-9.06095
▁cook	-9.06597
cation	-9.06598
▁activity	-9.06792
▁lottery	-9.06792
▁calm	-9.06804
▁early	-9.07331
▁fit	-9.07493
aces	-9.07514
▁people	-9.0827
▁choice	-9.0827
▁podcast	-9.08274
▁Be	-9.0884
p	-9.09669
▁move	-9.09778
▁clean	-9.09821
ary	-9.09978
ace	-9.10021
▁math	-9.10189
▁food	-9.10237
th	-9.10282
ant	-9.10449
elcome	-9.11185
▁month	-9.11323
▁poses	-9.11325
▁hard	-9.11369
▁bi	-9.11696
▁historic	-9.11858
▁prices	-9.12253
▁h	-9.12343
▁exact	-9.12808
▁prepare	-9.12868
▁stock	-9.1288
▁cur	-9.13043
▁limits	-9.13105
▁feel	-9.13382
▁clock	-9.13513
▁difficult	-9.13796
sure	-9.13812
▁grow	-9.13844
unning	-9.14193
▁all	-9.1425
▁objects	-9.14473
▁surfaces	-9.14476
▁understand	-9.14481
ight	-9.14483
tle	-9.1478
▁Sh	-9.15963
hale	-9.15971
te	-9.16099
▁helpful	-9.16235
▁trails	-9.16252
h	-9.16466
ening	-9.16527
▁lake	-9.16973
▁i	-9.17453
▁consistent	-9.17666
▁multi	-9.17712
▁levels	-9.17718
ups	-9.17881
▁topic	-9.1793
ut	-9.17967
▁not	-9.18216
▁1	-9.18263
▁manag	-9.18734
▁'	-9.18847
gue	-9.19324
▁develop	-9.19388
▁workdays	-9.19396
▁out	-9.19957
▁prompts	-9.20127
ild	-9.20238
very	-9.20435
▁ready	-9.20787
unne	-9.20836
▁spaces	-9.20982
▁year	-9.21109
qua	-9.21646
cess	-9.21783
▁workouts	-9.21936
▁Sor	-9.22136
se	-9.2241
▁sho	-9.2311
▁days	-9.23772
▁ki	-9.24081
▁te	-9.24117
assist	-9.24125
▁loca	-9.24212
▁gym	-9.2456
▁reflecti	-9.2458
hy	-9.25059
▁material	-9.25157
nk	-9.25551
▁Cho	-9.25803
▁li	-9.25967
▁Python	-9.26337
▁dishes	-9.26337
▁planks	-9.26339
▁devices	-9.26341
▁stories	-9.26351
▁sketching	-9.26472
▁helps	-9.26857
▁materials	-9.27549
ition	-9.28103
▁nice	-9.28151
▁budget	-9.28154
▁digital	-9.28158
▁shapes	-9.2818
▁setting	-9.28266
▁sweets	-9.28458
▁mo	-9.29653
▁habits	-9.30004
▁convenien	-9.30013
ten	-9.30043
igh	-9.30087
wise	-9.30193
▁composition	-9.30712
▁pet	-9.311
▁Y	-9.31197
▁part	-9.3159
▁scales	-9.31889
▁discuss	-9.31893
lad	-9.32026
reak	-9.32481
▁game	-9.32546
▁mi	-9.3318
ering	-9.33365
ng	-9.33437
▁recall	-9.33812
▁muscles	-9.33815
▁Learn	-9.33826
▁setup	-9.33835
▁room	-9.34068
some	-9.34233
ys	-9.34425
free	-9.34587
▁clutter	-9.34621
▁price	-9.34626
▁air	-9.354
▁sala	-9.35402
▁idiot	-9.35764
▁shift	-9.35768
▁achiev	-9.35769
▁already	-9.35774
▁outdoor	-9.35775
▁perfect	-9.35782
▁match	-9.35823
▁share	-9.35863
ah	-9.35892
▁stick	-9.35984
▁open	-9.36431
onsistency	-9.36576
der	-9.37112
▁foods	-9.37229
top	-9.3745
▁milestones	-9.3778
▁names	-9.37832
king	-9.38042
▁location	-9.38678
radually	-9.38795
ound	-9.38877
an	-9.38902
erb	-9.39012
The	-9.39491
ments	-9.39755
iting	-9.39798
▁distance	-9.39815
▁improvement	-9.3994
▁sources	-9.40201
ro	-9.40218
▁rain	-9.40271
▁problems	-9.40314
unte	-9.40399
▁answer	-9.40688
ew	-9.41164
▁fast	-9.41496
ose	-9.41521
▁idea	-9.41833
▁challeng	-9.41896
▁commuting	-9.41898
▁riverside	-9.41898
ul	-9.41932
▁programming	-9.4199
▁shading	-9.41998
▁visiting	-9.42314
hic	-9.42404
going	-9.42617
▁Wa	-9.42717
ate	-9.42979
many	-9.43745
▁se	-9.43952
▁near	-9.44078
▁fresh	-9.44986
val	-9.45234
▁sol	-9.46086
▁someone	-9.46199
▁destination	-9.462
educ	-9.46212
▁plants	-9.46292
▁natur	-9.46443
▁other	-9.4696
eight	-9.4698
▁experiment	-9.4726
▁speak	-9.47331
ou	-9.47693
▁Consi	-9.47805
clu	-9.48058
ti	-9.48058
▁variety	-9.48411
▁chess	-9.48568
imple	-9.48733
▁p	-9.49087
▁rest	-9.4958
▁atten	-9.4972
▁three	-9.50672
▁desk	-9.50674
▁utensils	-9.50684
▁getaway	-9.50686
▁bank	-9.50713
▁exc	-9.50762
ttery	-9.50798
▁priva	-9.51154
▁jo	-9.51412
▁indoors	-9.51658
▁difficulty	-9.51678
tain	-9.5201
expected	-9.52918
▁revise	-9.52999
▁coffee	-9.53001
▁computer	-9.53007
▁lectures	-9.5301
▁consistency	-9.53123
▁draw	-9.54206
▁walk	-9.54253
▁always	-9.54323
tching	-9.5436
▁workout	-9.54565
▁ex	-9.55162
▁hand	-9.55289
▁protein	-9.55383
▁instruction	-9.5544
▁gold	-9.55456
▁For	-9.56031
▁creat	-9.56715
way	-9.56882
▁st	-9.56937
▁areas	-9.57362
▁tr	-9.57475
onfidence	-9.57801
▁Dumb	-9.57804
▁drive	-9.57813
▁English	-9.5782
▁parfaits	-9.57823
▁express	-9.57838
vo	-9.57846
commod	-9.58369
pe	-9.58882
▁fi	-9.58938
G	-9.59945
inu	-9.60122
▁summari	-9.60292
▁adopt	-9.6031
▁election	-9.60321
▁community	-9.60341
il	-9.60624
ity	-9.60825
fi	-9.61183
▁past	-9.61303
▁task	-9.61627
lways	-9.61806
▁im	-9.62073
▁prepar	-9.62199
▁effective	-9.62816
▁coworker	-9.62882
▁excellent	-9.62885
▁slowly	-9.62911
▁ar	-9.62915
▁briefly	-9.6292
ool	-9.63134
fast	-9.63545
▁build	-9.64326
▁lead	-9.64424
▁soc	-9.65162
▁lists	-9.65225
mula	-9.65431
▁Galax	-9.655
▁Harari	-9.65505
▁guitar	-9.65505
▁deprived	-9.65511
▁presentation	-9.65578
▁cycling	-9.65635
connect	-9.65749
▁stor	-9.6577
ature	-9.6596
▁hum	-9.65978
ir	-9.66196
place	-9.66206
ummarize	-9.6652
all	-9.66523
▁wi	-9.66659
▁way	-9.6673
▁group	-9.6701
▁prompt	-9.67037
▁brea	-9.68121
▁physical	-9.68212
▁kids	-9.68214
▁entertain	-9.68214
▁Walk	-9.68273
▁travel	-9.68293
cycl	-9.68505
▁mon	-9.69119
ionship	-9.69617
▁question	-9.69776
ps	-9.70386
▁efficien	-9.70548
tions	-9.70877
now	-9.70955
▁exchange	-9.70987
▁perspective	-9.70992
▁ideas	-9.70995
▁declutter	-9.71027
▁as	-9.71133
ext	-9.71269
nue	-9.71374
lower	-9.71443
▁folders	-9.71549
▁inst	-9.72288
▁treats	-9.73227
▁Hiking	-9.73368
▁Explor	-9.73835
▁Street	-9.73835
▁tackl	-9.7384
▁safely	-9.73844
▁event	-9.74112
actic	-9.74383
▁walls	-9.74445
ol	-9.74522
▁N	-9.75759
tt	-9.76159
▁pe	-9.7665
▁dumb	-9.76762
nt	-9.76769
▁quiet	-9.76771
▁anxious	-9.76777
▁guidance	-9.7678
▁logically	-9.76782
▁vocabulary	-9.76783
▁temp	-9.7685
▁creativity	-9.76868
▁fac	-9.77075
▁map	-9.77618
ff	-9.77634
raps	-9.77969
helme	-9.78241
▁comfort	-9.78271
▁am	-9.78367
▁compositions	-9.78682
ip	-9.78733
▁inspir	-9.79803
▁equipment	-9.79809
▁exercising	-9.79902
▁hear	-9.79915
▁famili	-9.79942
roa	-9.79983
ommuni	-9.79994
▁videos	-9.80131
ardi	-9.80345
utions	-9.80376
▁co	-9.80605
▁weekends	-9.80759
▁mak	-9.80763
▁media	-9.80853
▁beat	-9.81026
site	-9.8166
▁subject	-9.81729
▁ad	-9.81936
▁light	-9.82016
teen	-9.82718
0	-9.82853
▁counters	-9.82931
▁descri	-9.82931
▁distracted	-9.82932
▁down	-9.8299
▁sch	-9.83062
▁streets	-9.83069
ap	-9.83382
▁stretches	-9.83407
▁no	-9.83911
▁Ho	-9.84179
ead	-9.84582
away	-9.84605
▁la	-9.84623
▁he	-9.84964
api	-9.85628
▁Great	-9.86084
▁govern	-9.86145
▁phrases	-9.86149
▁tomorrow	-9.86151
▁planner	-9.86156
▁classes	-9.86157
▁communi	-9.86231
▁saving	-9.86357
▁dreams	-9.8645
▁numbers	-9.86492
▁ride	-9.86718
pets	-9.86782
ture	-9.86953
vil	-9.87928
member	-9.88258
▁1984	-9.88346
gin	-9.88531
ans	-9.88653
tely	-9.89296
ML	-9.89413
▁Sketch	-9.89413
▁crypto	-9.89413
▁lunch	-9.89471
▁training	-9.89509
▁awareness	-9.89512
rioriti	-9.89516
bilit	-9.89932
▁artist	-9.89994
card	-9.90299
▁cu	-9.90383
▁subjects	-9.90709
▁mornings	-9.90834
▁strateg	-9.91021
ers	-9.91241
▁fla	-9.91264
1	-9.91449
▁decorati	-9.91883
wo	-9.91918
pt	-9.92029
usy	-9.92254
▁foun	-9.92612
▁motivate	-9.92786
▁Okay	-9.92861
▁together	-9.92861
▁label	-9.92861
▁predict	-9.92862
▁anxi	-9.92874
▁hearts	-9.92883
▁TV	-9.92967
ble	-9.93021
Stu	-9.93183
ages	-9.93269
▁pots	-9.93391
media	-9.93574
▁gra	-9.93888
▁writ	-9.9427
im	-9.94364
▁visualiz	-9.94547
standing	-9.94638
▁method	-9.94708
▁exam	-9.95139
▁beginner	-9.9523
dential	-9.95259
▁tech	-9.95642
day	-9.95942
▁piano	-9.96432
▁dialogue	-9.96432
▁emotions	-9.96432
▁manual	-9.96433
▁shap	-9.96441
portions	-9.96447
▁awake	-9.96531
paint	-9.96551
reativity	-9.9664
ords	-9.97002
ish	-9.97112
ear	-9.97215
write	-9.97231
▁aware	-9.9728
▁desserts	-9.97296
fine	-9.97437
ety	-9.98669
▁color	-9.98901
at	-9.99558
ds	-9.99603
▁edit	-9.99954
tup	-10.0001
▁Da	-10.001
▁Enjoy	-10.0014
▁Organiz	-10.0014
▁Paris	-10.0017
▁workplace	-10.002
▁dec	-10.0026
▁web	-10.0026
ompare	-10.0041
▁Pr	-10.005
▁movies	-10.006
▁Le	-10.0073
mp	-10.0078
rich	-10.0098
sket	-10.0102
xperiment	-10.0116
▁less	-10.0116
▁techn	-10.012
lar	-10.0151
▁Inc	-10.0178
indful	-10.0188
watch	-10.0188
atch	-10.0209
ately	-10.0231
g	-10.0234
peti	-10.0266
▁fruit	-10.0272
▁sport	-10.0272
ipe	-10.0281
▁change	-10.0291
rs	-10.034
the	-10.0348
▁date	-10.0362
▁clarity	-10.0398
▁oatmeal	-10.0398
▁science	-10.0398
▁blue	-10.04
iet	-10.0414
oro	-10.0415
che	-10.0458
▁tight	-10.0474
▁crafting	-10.0489
pl	-10.0544
tudy	-10.0547
da	-10.0582
pic	-10.0601
omo	-10.0611
ba	-10.0617
ion	-10.0688
ter	-10.0726
▁substitut	-10.0736
▁art	-10.0763
▁ones	-10.0775
nder	-10.079
▁proper	-10.0795
view	-10.0797
▁afternoon	-10.0798
▁reminders	-10.0798
▁Idiot	-10.0798
nning	-10.0812
me	-10.0813
matic	-10.0836
▁painting	-10.0877
▁tri	-10.0896
▁Di	-10.0925
▁loo	-10.093
▁experiments	-10.102
▁mov	-10.1029
you	-10.1052
b	-10.1057
eel	-10.1097
cord	-10.1102
ship	-10.1135
▁ma	-10.1145
hit	-10.1177
ports	-10.1199
▁screens	-10.1199
▁brightness	-10.1215
▁normal	-10.1215
▁warm	-10.1215
▁place	-10.1221
▁True	-10.1225
frai	-10.1246
▁sound	-10.1257
▁fin	-10.1259
ac	-10.126
onom	-10.1262
▁Go	-10.1276
eclutter	-10.1282
tretch	-10.1288
▁fro	-10.1302
▁sta	-10.1326
▁exa	-10.1326
▁fl	-10.1354
▁beginners	-10.1357
ork	-10.1411
▁walks	-10.142
▁pace	-10.1447
▁snack	-10.1522
ey	-10.1566
▁win	-10.1578
amp	-10.16
▁brief	-10.1643
▁meditat	-10.1649
▁Classic	-10.165
▁thoroughly	-10.165
▁situation	-10.165
▁dark	-10.165
▁expl	-10.1654
▁intelligent	-10.1661
writing	-10.1671
mple	-10.1671
▁meetings	-10.1702
▁optimiz	-10.1706
▁bring	-10.1719
▁Look	-10.1788
▁un	-10.1792
▁runs	-10.1794
▁head	-10.183
▁fu	-10.1847
▁hell	-10.1861
pend	-10.1887
▁ci	-10.1947
▁thank	-10.1984
▁success	-10.2019
ude	-10.2027
ue	-10.2033
▁buy	-10.2046
▁Mus	-10.2084
nteresting	-10.2094
▁differen	-10.2104
▁useless	-10.2104
rawing	-10.2107
▁Jo	-10.2109
ware	-10.2115
positi	-10.2116
▁bu	-10.2135
nytime	-10.2148
ett	-10.2166
▁reach	-10.2183
▁du	-10.2236
▁L	-10.224
here	-10.2245
cious	-10.2255
▁meal	-10.2265
ass	-10.2268
▁stroke	-10.2273
vir	-10.2304
medi	-10.2328
▁e	-10.2353
ons	-10.2372
redi	-10.2398
ears	-10.2433
ss	-10.2531
▁informati	-10.2575
▁Exactly	-10.258
▁mnemonic	-10.258
▁outcome	-10.2582
▁easi	-10.2592
▁Main	-10.2604
▁spacing	-10.2606
▁intervals	-10.2614
▁sec	-10.2624
▁view	-10.2672
ents	-10.2688
rice	-10.2721
titu	-10.2741
side	-10.2742
ha	-10.2753
ning	-10.2756
▁pa	-10.2758
do	-10.2759
hen	-10.2771
▁craft	-10.2837
▁k	-10.284
ient	-10.285
▁too	-10.2864
▁resi	-10.287
vel	-10.2885
ur	-10.2898
▁specific	-10.291
gh	-10.2926
nal	-10.2927
nc	-10.2933
▁won	-10.295
▁dessert	-10.296
imi	-10.2984
ravel	-10.301
▁bed	-10.3072
hotography	-10.3078
▁airport	-10.308
▁French	-10.308
▁address	-10.308
▁France	-10.3081
bli	-10.3093
▁surprising	-10.3101
▁exactly	-10.3104
▁constructively	-10.3109
commendations	-10.3113
▁close	-10.312
roup	-10.3184
▁Pro	-10.3191
▁U	-10.3194
▁exams	-10.3197
▁pat	-10.3214
▁j	-10.324
table	-10.326
kes	-10.3263
eird	-10.3272
ings	-10.3322
O	-10.3369
▁locations	-10.3388
▁Ha	-10.3457
aster	-10.3465
▁visit	-10.3501
▁spend	-10.3524
▁wall	-10.3537
ncreas	-10.3592
▁sim	-10.3602
▁sentences	-10.3607
▁trivia	-10.3607
▁cardio	-10.3607
▁outside	-10.3608
pital	-10.3611
▁company	-10.3623
▁substitutes	-10.3651
erg	-10.3672
box	-10.3686
otivation	-10.3686
▁baking	-10.3719
▁po	-10.3721
▁consu	-10.3732
▁Stu	-10.3855
ics	-10.3877
era	-10.3877
acks	-10.3882
iles	-10.3891
hou	-10.3909
back	-10.4027
ssociat	-10.4111
▁flu	-10.4113
▁stre	-10.4139
weet	-10.415
▁available	-10.4162
▁calendar	-10.4162
▁picnic	-10.4162
▁responses	-10.4162
▁filters	-10.4162
▁pressure	-10.4162
▁alone	-10.4163
▁soft	-10.4165
▁contact	-10.4167
ession	-10.4167
▁blog	-10.4169
▁genre	-10.4195
ood	-10.4258
▁surprise	-10.4268
▁story	-10.4285
ay	-10.4294
▁us	-10.4337
round	-10.4342
bl	-10.4345
curren	-10.4349
izer	-10.4386
▁memor	-10.4392
▁answers	-10.4496
course	-10.4567
▁atte	-10.4571
▁oc	-10.4586
▁folder	-10.4631
▁nut	-10.4672
etter	-10.4672
ical	-10.4704
▁Creat	-10.4704
com	-10.4725
▁Beijing	-10.475
▁alternatives	-10.475
▁character	-10.4751
▁downtown	-10.4751
▁spots	-10.4751
▁vacation	-10.4751
▁adv	-10.4761
▁scenes	-10.4785
▁efficient	-10.4838
ine	-10.4846
lit	-10.4855
main	-10.4859
usic	-10.4859
▁spending	-10.4872
mpt	-10.4904
▁slow	-10.4917
ations	-10.4932
thie	-10.5015
▁Ye	-10.5033
aintain	-10.5042
rror	-10.5047
▁inter	-10.5061
act	-10.5083
▁run	-10.5088
▁To	-10.5119
rac	-10.5146
dur	-10.516
ati	-10.5166
tabl	-10.5171
▁post	-10.5184
▁suggestions	-10.5211
▁source	-10.5254
fuck	-10.5282
tch	-10.5319
▁café	-10.5375
▁museum	-10.5376
berries	-10.5376
▁essentials	-10.5376
▁wrong	-10.5376
▁speakers	-10.5378
▁world	-10.5378
ana	-10.5384
native	-10.5409
▁friendly	-10.5425
rogramming	-10.5426
▁pur	-10.5476
▁artif	-10.5479
ope	-10.549
▁compar	-10.5522
▁Ear	-10.5526
lish	-10.5534
▁prepared	-10.5556
▁pleas	-10.5642
▁Rea	-10.5649
▁groups	-10.5665
eful	-10.5681
as	-10.5712
▁fucked	-10.5712
▁paint	-10.5723
▁sur	-10.5778
sibl	-10.5815
▁exp	-10.5832
epend	-10.5836
moo	-10.5863
▁2	-10.5879
tard	-10.5935
egendary	-10.5936
▁bak	-10.5968
ges	-10.5983
ner	-10.6
ent	-10.6011
▁Sy	-10.6019
▁convers	-10.604
▁statistics	-10.6042
▁market	-10.6042
▁mirror	-10.6043
▁combin	-10.6049
▁list	-10.6062
mov	-10.6064
graphy	-10.6069
▁shoes	-10.6071
▁conditions	-10.6073
rit	-10.61
rainstorm	-10.6101
▁dress	-10.6129
date	-10.614
bs	-10.6167
▁jack	-10.6171
per	-10.6195
▁join	-10.6216
▁top	-10.6236
hi	-10.6265
▁events	-10.6332
ist	-10.6339
azz	-10.6342
▁d	-10.6365
olo	-10.6405
itt	-10.644
ave	-10.6555
sta	-10.6562
sult	-10.6575
ide	-10.66
▁sweet	-10.6661
▁ho	-10.6665
olu	-10.6689
▁animals	-10.6756
▁details	-10.6756
▁Coursera	-10.6756
▁amazing	-10.6756
▁worthless	-10.6756
▁prefer	-10.6757
▁present	-10.6757
▁safety	-10.6757
▁images	-10.6757
▁series	-10.6759
▁family	-10.6759
▁Fruit	-10.6761
gy	-10.6781
late	-10.6809
▁duration	-10.6818
▁en	-10.6823
▁guides	-10.6835
ually	-10.6844
▁rates	-10.6845
▁tast	-10.6853
▁expe	-10.6893
▁successful	-10.6894
▁late	-10.6951
nses	-10.6972
grow	-10.6991
▁pos	-10.6991
ai	-10.7008
▁call	-10.704
solv	-10.7078
▁Sta	-10.7102
fra	-10.7172
▁vo	-10.7287
ign	-10.7293
ack	-10.7325
itch	-10.7332
co	-10.735
come	-10.7367
erve	-10.7396
gg	-10.7401
emember	-10.747
ater	-10.7497
purpose	-10.7526
▁Respect	-10.7526
▁London	-10.7526
7	-10.7526
▁Amaz	-10.7526
▁unmotivated	-10.7526
▁translate	-10.7526
▁beforehand	-10.7526
▁sci	-10.7531
▁heav	-10.7538
ences	-10.7575
ph	-10.7613
▁deeply	-10.7615
▁Mi	-10.7623
▁automatic	-10.7636
qui	-10.7659
lcome	-10.7679
ules	-10.7692
sshole	-10.7724
▁polit	-10.7739
▁repai	-10.7831
▁schedules	-10.7838
bal	-10.7838
▁Fa	-10.7839
nte	-10.7879
ca	-10.7885
▁sn	-10.7942
exi	-10.7956
▁whi	-10.8009
log	-10.803
full	-10.8064
ctures	-10.8081
pair	-10.8102
eli	-10.8105
anning	-10.8122
ption	-10.8151
isin	-10.8185
▁dis	-10.8226
line	-10.8233
▁incre	-10.8247
▁pi	-10.8248
solut	-10.825
▁desi	-10.8266
are	-10.8354
▁douche	-10.8359
▁simulate	-10.8359
▁sunlight	-10.8359
▁corner	-10.8359
▁sauce	-10.8359
▁bistro	-10.8359
▁imagin	-10.836
shed	-10.8369
▁job	-10.837
▁strange	-10.8386
▁tonight	-10.8423
▁Lo	-10.8428
ional	-10.8429
▁pot	-10.8479
▁si	-10.8538
How	-10.8564
ward	-10.8637
oce	-10.8646
pa	-10.8669
eig	-10.8686
▁path	-10.8696
▁lea	-10.8703
▁En	-10.8706
red	-10.8715
ra	-10.8819
▁sti	-10.8874
ivi	-10.8925
tally	-10.8972
ifica	-10.8994
z	-10.9041
▁foo	-10.9052
long	-10.9081
oth	-10.9106
▁cons	-10.9127
ecorat	-10.9136
eally	-10.9145
ind	-10.919
arks	-10.9206
▁sh	-10.9206
mina	-10.9242
erfect	-10.9266
▁Fiction	-10.9268
Dune	-10.9268
▁after	-10.9269
▁photos	-10.9274
hear	-10.9293
▁guide	-10.9293
▁moderat	-10.9297
otes	-10.9298
▁colla	-10.9312
▁cups	-10.9327
▁thoughts	-10.9368
cu	-10.9383
move	-10.941
ag	-10.9497
▁dog	-10.9512
ted	-10.9531
rth	-10.9554
▁party	-10.958
▁stu	-10.9623
astard	-10.9626
▁sal	-10.9638
other	-10.9655
▁pl	-10.9672
▁swi	-10.9688
uth	-10.969
head	-10.9693
▁tel	-10.9724
wi	-10.977
▁visual	-10.9779
▁earl	-10.9789
wit	-10.9792
▁ass	-10.9796
▁They	-10.9834
rack	-10.9893
▁poli	-10.9942
pi	-10.9978
dam	-10.998
jokes	-10.9999
views	-11.0019
li	-11.0053
um	-11.0102
ie	-11.0105
can	-11.0105
▁motivat	-11.0115
▁meeting	-11.0155
nsult	-11.0159
tly	-11.0216
▁Ex	-11.0227
cal	-11.025
arden	-11.0251
oking	-11.0253
▁popula	-11.0258
ppet	-11.0259
▁Japan	-11.0268
X	-11.0268
▁behavior	-11.0268
▁effort	-11.0268
▁perform	-11.0268
▁relief	-11.0268
▁achievements	-11.0268
▁Hobbi	-11.0268
▁enough	-11.0268
▁context	-11.027
istics	-11.0275
▁song	-11.0278
▁pain	-11.0281
▁speci	-11.0295
▁enjoyable	-11.0322
▁than	-11.0351
Am	-11.0364
▁Run	-11.038
vening	-11.0418
▁gentl	-11.0424
vit	-11.0425
▁acco	-11.0443
ong	-11.0485
ure	-11.0518
▁Rep	-11.0535
▁int	-11.0575
▁exe	-11.0602
▁av	-11.0641
▁qu	-11.0694
tin	-11.0703
▁al	-11.0705
▁hu	-11.071
faces	-11.073
ency	-11.0772
A	-11.0826
mmarize	-11.0841
B	-11.0887
orable	-11.0888
tive	-11.0939
ught	-11.099
▁updat	-11.0997
V	-11.1048
akes	-11.1063
ping	-11.1064
piece	-11.1081
Ja	-11.1082
bin	-11.112
▁lat	-11.1129
ters	-11.1178
ches	-11.1194
task	-11.1214
▁number	-11.1256
ver	-11.1283
▁trail	-11.1285
▁thought	-11.1295
bil	-11.1351
▁video	-11.1354
si	-11.1354
am	-11.1358
word	-11.1367
▁Tokyo	-11.1379
▁impr	-11.139
gestion	-11.1392
self	-11.1398
▁recommendations	-11.14
▁fil	-11.142
▁bus	-11.1499
▁leav	-11.1502
tag	-11.1546
epar	-11.1696
uck	-11.1736
▁R	-11.1793
blis	-11.1798
ee	-11.1816
▁rea	-11.1856
fini	-11.1858
▁El	-11.1883
ases	-11.1894
ries	-11.2015
▁pr	-11.2111
▁mou	-11.2112
od	-11.2112
▁Pla	-11.2126
▁mat	-11.2158
▁curren	-11.2163
iro	-11.2283
ser	-11.2307
for	-11.2312
▁De	-11.2318
ctua	-11.2374
▁writer	-11.2419
F	-11.2438
isten	-11.2451
utomat	-11.2505
▁option	-11.2506
▁dream	-11.2506
decorat	-11.2517
there	-11.2537
oon	-11.2585
night	-11.2619
tes	-11.2621
19	-11.2629
▁calculations	-11.2629
▁circuits	-11.2629
▁accura	-11.2629
▁assignment	-11.263
▁worth	-11.2631
▁poem	-11.2631
▁sav	-11.264
genda	-11.2643
▁trans	-11.2661
oil	-11.2663
pace	-11.2679
▁de	-11.2686
tent	-11.2695
oint	-11.2705
how	-11.2716
ig	-11.2779
▁pic	-11.2786
▁end	-11.2833
about	-11.2834
zon	-11.2852
pie	-11.2867
ying	-11.2907
tb	-11.2918
▁Bu	-11.2949
our	-11.2971
home	-11.2995
▁rate	-11.3021
▁count	-11.3049
ring	-11.3055
▁colors	-11.3078
lines	-11.309
▁ref	-11.3112
▁faste	-11.3114
▁Min	-11.3116
▁cha	-11.3175
rate	-11.3186
▁comb	-11.3235
tific	-11.3249
▁ac	-11.3303
shelves	-11.3304
vis	-11.3354
eac	-11.3374
▁prep	-11.3406
▁Cu	-11.3415
don	-11.3453
tures	-11.3505
▁bas	-11.3505
joke	-11.3516
▁Res	-11.3562
▁n	-11.3576
roll	-11.361
▁thin	-11.3628
mn	-11.3704
ivate	-11.3785
▁pres	-11.3841
▁period	-11.3922
ically	-11.393
oo	-11.4058
4	-11.4058
▁Lab	-11.4059
ignment	-11.4064
▁sketch	-11.4065
ely	-11.4081
▁imp	-11.4095
▁reli	-11.4108
life	-11.4145
mome	-11.4164
sign	-11.42
ior	-11.4242
hed	-11.4251
ateg	-11.426
Sa	-11.4263
hor	-11.4275
ration	-11.43
acts	-11.4353
asy	-11.4374
eek	-11.4379
ban	-11.4402
2	-11.4432
▁Ca	-11.4434
▁meme	-11.4458
sa	-11.4477
▁card	-11.4522
▁bookshel	-11.4609
iches	-11.4615
orr	-11.469
nce	-11.4707
mming	-11.4717
aint	-11.4778
mod	-11.479
▁op	-11.4793
▁ess	-11.4832
▁ti	-11.4834
door	-11.4876
▁strategi	-11.4889
▁cap	-11.4912
work	-11.4932
▁stra	-11.4995
ized	-11.4996
ooks	-11.4998
▁oat	-11.5004
▁conce	-11.5092
▁stru	-11.5105
ric	-11.5118
locks	-11.5126
nde	-11.5215
ab	-11.5255
▁med	-11.5309
▁Ve	-11.5382
tting	-11.5437
tomat	-11.5483
good	-11.5496
▁cho	-11.5548
▁feature	-11.5592
▁interval	-11.5605
▁clo	-11.562
dates	-11.5674
▁intelligen	-11.5678
thon	-11.5713
6	-11.5724
/	-11.5725
eakers	-11.5726
▁clos	-11.5727
▁presen	-11.5735
▁popular	-11.5742
rag	-11.5744
▁optim	-11.5746
▁gr	-11.5757
itely	-11.5776
▁blo	-11.5789
fr	-11.5806
uctu	-11.5836
get	-11.5837
▁substitute	-11.5854
pest	-11.5868
avor	-11.5877
orld	-11.5917
inder	-11.5926
str	-11.5946
▁stat	-11.5989
know	-11.6013
gendary	-11.6014
cha	-11.6079
▁loc	-11.6083
▁sm	-11.6104
▁rela	-11.6108
▁remo	-11.6116
ending	-11.6147
▁reta	-11.6153
tter	-11.6208
lim	-11.6234
improvement	-11.6239
▁Mor	-11.6243
▁cat	-11.6281
1984	-11.6315
▁car	-11.6333
fic	-11.6344
specific	-11.6353
lists	-11.6366
▁vi	-11.6368
ame	-11.6393
gs	-11.6417
mo	-11.6458
rite	-11.6506
Yes	-11.6521
dvice	-11.6546
▁Fi	-11.6561
▁appl	-11.6604
▁she	-11.6614
efin	-11.6633
imiz	-11.6642
socia	-11.6694
ge	-11.6832
▁engag	-11.6833
▁bik	-11.6854
today	-11.6964
qu	-11.7054
Do	-11.7123
▁star	-11.7129
▁In	-11.7139
▁sl	-11.7187
arty	-11.724
ently	-11.7316
ndation	-11.732
prov	-11.7328
▁fee	-11.7388
▁Gr	-11.7398
▁rid	-11.7429
▁alo	-11.7446
unt	-11.7462
ides	-11.7484
enter	-11.7516
ci	-11.7596
▁scene	-11.76
ess	-11.7624
tel	-11.7637
▁Par	-11.7649
▁compan	-11.7689
ert	-11.7699
rk	-11.7703
▁safe	-11.7715
▁product	-11.7715
ement	-11.7718
escri	-11.7719
▁organi	-11.7719
▁class	-11.7721
▁equal	-11.7725
▁river	-11.7726
iece	-11.7735
ne	-11.7754
andw	-11.7762
ctly	-11.7762
▁Fu	-11.777
ling	-11.7778
▁comm	-11.7784
▁accom	-11.7804
tak	-11.7868
rays	-11.7895
ugh	-11.7898
lin	-11.7953
inner	-11.8003
ri	-11.8017
▁aut	-11.8046
nish	-11.8073
lean	-11.809
rize	-11.8093
▁tea	-11.8119
rain	-11.8137
▁bea	-11.8163
▁shad	-11.8201
hir	-11.824
ret	-11.8283
active	-11.8294
nfor	-11.8308
di	-11.8343
tun	-11.8346
bye	-11.8358
▁sing	-11.8397
ill	-11.8405
requ	-11.845
etard	-11.8455
ep	-11.8484
cr	-11.8609
cut	-11.8616
storic	-11.8626
tor	-11.8672
op	-11.8672
ot	-11.8694
build	-11.8728
ud	-11.8732
did	-11.8766
kin	-11.8775
uti	-11.8799
he	-11.8807
comfort	-11.884
eat	-11.8866
cks	-11.8897
etting	-11.8931
go	-11.9002
ates	-11.9005
bot	-11.903
▁ri	-11.9159
entials	-11.9352
over	-11.9368
ase	-11.9402
▁obs	-11.9431
▁Coo	-11.9468
anno	-11.948
▁leg	-11.9491
ieve	-11.9496
mal	-11.9518
▁St	-11.9553
cture	-11.9565
▁ther	-11.957
ply	-11.9587
rding	-11.9656
with	-11.9826
▁ha	-11.9839
Wh	-11.9856
ea	-11.9903
fully	-11.9974
grou	-12.0071
ses	-12.0072
eas	-12.0076
▁condition	-12.0099
▁street	-12.011
▁son	-12.011
▁programm	-12.0115
sp	-12.0154
sla	-12.0174
ove	-12.0181
rains	-12.021
▁experi	-12.0231
▁summ	-12.0239
ily	-12.0251
▁brain	-12.0252
▁ind	-12.027
▁scien	-12.0272
Can	-12.0283
ctu	-12.0402
ealthy	-12.0441
elect	-12.0448
Hi	-12.0461
▁ear	-12.05
stay	-12.0536
▁ope	-12.0564
dge	-12.0659
ffe	-12.0661
daily	-12.068
alt	-12.0705
Pl	-12.0737
ats	-12.0816
▁Sp	-12.0825
rpor	-12.0832
▁fact	-12.0867
la	-12.0948
ail	-12.1011
vio	-12.1062
evis	-12.1126
▁fe	-12.1158
▁dat	-12.1195
ual	-12.1221
▁th	-12.1345
▁bl	-12.1347
edu	-12.1365
ves	-12.1436
▁agen	-12.1445
ola	-12.1471
hoo	-12.1484
▁Goo	-12.1505
You	-12.1559
ealth	-12.1568
▁Pa	-12.1713
▁ob	-12.1762
▁sca	-12.1778
vi	-12.1833
▁form	-12.184
no	-12.187
lock	-12.1954
▁hel	-12.1957
rib	-12.2046
itc	-12.2158
count	-12.2181
ns	-12.2192
egi	-12.2333
▁thr	-12.2439
eadlines	-12.2449
lex	-12.2456
een	-12.2462
conversation	-12.2656
met	-12.2701
ins	-12.2705
ishe	-12.2724
cate	-12.2755
lace	-12.2765
oin	-12.279
ster	-12.2807
respectful	-12.289
▁sy	-12.29
▁fo	-12.2936
nis	-12.2941
R	-12.2992
awe	-12.2994
▁ag	-12.303
lli	-12.3047
▁fa	-12.3172
read	-12.3196
U	-12.3237
pani	-12.3243
▁hun	-12.3305
bo	-12.3343
▁pri	-12.3394
iving	-12.3395
▁automat	-12.3397
tche	-12.3407
▁name	-12.3438
▁mini	-12.3543
▁pric	-12.3552
ocks	-12.356
ste	-12.3648
consistently	-12.3684
cle	-12.3687
oc	-12.3695
lic	-12.3757
▁cor	-12.3866
ative	-12.3873
otions	-12.3945
▁exper	-12.3978
been	-12.3978
ecommendations	-12.402
bor	-12.4027
fresh	-12.4041
uments	-12.405
let	-12.4065
▁consi	-12.4144
fte	-12.4199
Sure	-12.4209
rap	-12.4292
mot	-12.4365
sist	-12.4443
bas	-12.4471
moni	-12.4486
ocu	-12.4495
aps	-12.4615
ente	-12.4656
your	-12.4665
▁area	-12.4675
while	-12.4885
▁fr	-12.4896
▁plant	-12.4935
▁nea	-12.4953
▁cent	-12.5019
ls	-12.5225
elie	-12.5271
one	-12.5314
ho	-12.5355
mbers	-12.5445
ute	-12.5476
lue	-12.5494
ere	-12.5534
▁va	-12.557
▁ru	-12.5611
▁his	-12.5634
bes	-12.5653
cent	-12.5816
chi	-12.5981
ram	-12.5983
riv	-12.6183
nni	-12.6236
col	-12.6243
istoric	-12.6319
sine	-12.6368
por	-12.6381
ax	-12.6386
eb	-12.6389
P	-12.6402
▁ta	-12.6406
und	-12.6425
▁Yo	-12.6495
cit	-12.6516
have	-12.6535
▁qui	-12.6601
▁ve	-12.6672
edic	-12.6679
oi	-12.6693
mark	-12.671
els	-12.6809
▁mor	-12.7021
tem	-12.7023
evel	-12.71
rad	-12.7194
▁age	-12.7206
ort	-12.7234
compl	-12.7245
▁Id	-12.7302
old	-12.7474
short	-12.7538
▁comp	-12.7595
ants	-12.764
un	-12.7685
frie	-12.7708
ther	-12.7729
raw	-12.7808
▁ret	-12.7839
rance	-12.7885
Hello	-12.7936
sil	-12.8027
▁He	-12.806
aste	-12.8097
▁Th	-12.816
ta	-12.8198
cce	-12.8249
art	-12.8318
ioriti	-12.8335
▁le	-12.8344
What	-12.8589
nol	-12.8602
small	-12.8841
vor	-12.8873
arly	-12.8976
rt	-12.8978
▁ever	-12.9011
uran	-12.9099
▁sa	-12.9215
▁wor	-12.9235
om	-12.9243
ssi	-12.9311
ore	-12.9359
▁mar	-12.9586
base	-12.9607
▁cre	-12.9791
ating	-12.9811
inter	-12.99
▁freew	-12.9902
▁fas	-12.996
tic	-13.0033
new	-13.0266
J	-13.0476
Hey	-13.0488
ath	-13.0523
rb	-13.0537
ket	-13.0581
▁des	-13.0722
mer	-13.0793
▁da	-13.0802
ific	-13.0844
ki	-13.086
▁Si	-13.0877
iv	-13.0881
used	-13.0999
el	-13.1026
▁ne	-13.1057
want	-13.1102
lly	-13.1104
nex	-13.1106
eading	-13.1171
iking	-13.121
unda	-13.1217
keep	-13.1279
▁rem	-13.1336
ces	-13.135
ndful	-13.1351
tay	-13.1387
▁wa	-13.141
learning	-13.1837
cise	-13.1904
▁che	-13.1906
ese	-13.199
▁Ch	-13.1994
rior	-13.2046
dor	-13.2099
improve	-13.2168
os	-13.2198
raining	-13.2211
riti	-13.2226
ast	-13.2305
ous	-13.2478
pac	-13.2587
unn	-13.2598
▁pas	-13.2785
▁inte	-13.2824
▁sun	-13.2918
help	-13.2947
thi	-13.2958
rr	-13.3006
xt	-13.3054
intain	-13.3062
istr	-13.3143
cl	-13.3218
▁o	-13.3258
eck	-13.3313
of	-13.3383
mm	-13.3437
▁His	-13.3649
focus	-13.3684
die	-13.3783
assistan	-13.3847
practice	-13.4078
▁pre	-13.414
nag	-13.425
lo	-13.4345
regularly	-13.4355
ky	-13.4409
sters	-13.4552
end	-13.471
av	-13.4818
ird	-13.4969
▁conc	-13.4992
breaks	-13.5017
lanning	-13.5038
cc	-13.5129
sit	-13.5202
doing	-13.5254
efficiently	-13.5281
lu	-13.5282
lling	-13.5466
ump	-13.5499
oups	-13.5644
rre	-13.5662
simple	-13.5665
comp	-13.5719
rob	-13.5727
cui	-13.5779
ron	-13.5805
abl	-13.5863
bi	-13.5901
take	-13.5987
pro	-13.6035
▁em	-13.605
ntra	-13.6061
inim	-13.6064
maintain	-13.6161
try	-13.6197
gi	-13.6242
ackl	-13.627
pping	-13.6279
mos	-13.6292
distractions	-13.646
▁guid	-13.6575
▁tas	-13.661
ema	-13.6623
gradually	-13.668
win	-13.67
effectively	-13.6706
sing	-13.6748
eve	-13.6767
ni	-13.6821
rd	-13.6884
think	-13.6943
nner	-13.6957
exercises	-13.6983
Start	-13.7037
so	-13.7106
easily	-13.7169
▁inc	-13.7215
things	-13.7248
ogramming	-13.7304
tru	-13.736
llo	-13.7421
ak	-13.7439
▁Ja	-13.7573
ming	-13.7663
periment	-13.7672
start	-13.8023
▁aw	-13.8217
again	-13.8355
cin	-13.8413
sy	-13.8639
Good	-13.8721
ime	-13.8754
tri	-13.8774
fun	-13.8813
pet	-13.8838
ht	-13.8863
▁Co	-13.8943
need	-13.9037
▁min	-13.9088
W	-13.9153
rect	-13.9335
games	-13.9602
Us	-13.9777
liv	-14.0107
ibl	-14.0444
▁su	-14.0481
reduc	-14.0503
lun	-14.0606
▁y	-14.0636
ssist	-14.0726
▁Wi	-14.0793
fer	-14.0797
mate	-14.0798
nage	-14.0996
lot	-14.1075
▁ten	-14.1125
▁thing	-14.1254
stor	-14.128
tra	-14.1411
▁wea	-14.1412
ult	-14.1443
mpor	-14.1455
ct	-14.146
improv	-14.1496
helves	-14.1566
adlines	-14.1589
pto	-14.177
activities	-14.1922
tasks	-14.2015
quickly	-14.2108
like	-14.2126
reading	-14.2131
ash	-14.2132
tit	-14.216
review	-14.2161
track	-14.2182
ister	-14.2185
working	-14.2254
by	-14.2441
▁reco	-14.2443
▁res	-14.2518
Practice	-14.2625
▁man	-14.2924
▁fre	-14.3108
▁ed	-14.3215
inat	-14.3395
▁Tra	-14.3457
cip	-14.3539
sture	-14.4052
▁ea	-14.4143
struct	-14.4437
fin	-14.471
tips	-14.4888
ma	-14.4888
ile	-14.4944
ding	-14.4967
lea	-14.515
any	-14.5184
avel	-14.5203
check	-14.5204
language	-14.5458
choo	-14.5488
mat	-14.5637
notes	-14.5697
▁ple	-14.5731
du	-14.5963
sessions	-14.6014
Set	-14.6041
Tr	-14.6192
mpl	-14.6391
▁spac	-14.649
lie	-14.664
clutter	-14.6687
rest	-14.6689
ex	-14.6988
breathing	-14.7055
sociat	-14.72
eats	-14.7254
po	-14.7428
ded	-14.7428
chat	-14.7429
summarize	-14.7466
dly	-14.7483
gent	-14.7573
sion	-14.7587
hoos	-14.7769
wh	-14.7827
healthy	-14.803
▁cen	-14.8295
far	-14.8487
v	-14.8606
elling	-14.8656
equi	-14.8761
progress	-14.8762
C	-14.8875
website	-14.8888
tate	-14.8893
busy	-14.9033
feeling	-14.9125
ytime	-14.9283
ift	-14.9308
great	-14.9332
meals	-14.9637
ny	-14.9771
▁cooki	-14.9806
pp	-14.9917
well	-14.9992
oks	-15.0249
ach	-15.0349
this	-15.0552
onal	-15.0634
mind	-15.0677
health	-15.0717
ord	-15.0765
whe	-15.0789
cre	-15.1124
▁ra	-15.1145
practic	-15.1232
creative	-15.1265
teg	-15.1326
▁Gra	-15.1456
fidence	-15.1458
stretch	-15.1517
studying	-15.1719
ones	-15.1865
nfidence	-15.1876
vice	-15.2346
é	-15.2393
8	-15.2394
9	-15.2395
K	-15.2396
L	-15.2397
N	-15.2398
M	-15.2399
q	-15.24
j	-15.2401
H	-15.2402
air	-15.2402
